#ifndef SINE_MODEL_H
#define SINE_MODEL_H


unsigned int sine_model_len = 3192;
alignas(8) const unsigned char sine_model[] = {
 0x1c, 0x00, 0x00, 0x00, 0x54, 0x46, 0x4c, 0x33, 0x14, 0x00, 0x20, 0x00,
  0x1c, 0x00, 0x18, 0x00, 0x14, 0x00, 0x10, 0x00, 0x0c, 0x00, 0x00, 0x00,
  0x08, 0x00, 0x04, 0x00, 0x14, 0x00, 0x00, 0x00, 0x1c, 0x00, 0x00, 0x00,
  0x94, 0x00, 0x00, 0x00, 0xec, 0x00, 0x00, 0x00, 0x04, 0x07, 0x00, 0x00,
  0x14, 0x07, 0x00, 0x00, 0x24, 0x0c, 0x00, 0x00, 0x03, 0x00, 0x00, 0x00,
  0x01, 0x00, 0x00, 0x00, 0x10, 0x00, 0x00, 0x00, 0x00, 0x00, 0x0a, 0x00,
  0x10, 0x00, 0x0c, 0x00, 0x08, 0x00, 0x04, 0x00, 0x0a, 0x00, 0x00, 0x00,
  0x0c, 0x00, 0x00, 0x00, 0x1c, 0x00, 0x00, 0x00, 0x38, 0x00, 0x00, 0x00,
  0x0f, 0x00, 0x00, 0x00, 0x73, 0x65, 0x72, 0x76, 0x69, 0x6e, 0x67, 0x5f,
  0x64, 0x65, 0x66, 0x61, 0x75, 0x6c, 0x74, 0x00, 0x01, 0x00, 0x00, 0x00,
  0x04, 0x00, 0x00, 0x00, 0x94, 0xff, 0xff, 0xff, 0x09, 0x00, 0x00, 0x00,
  0x04, 0x00, 0x00, 0x00, 0x07, 0x00, 0x00, 0x00, 0x64, 0x65, 0x6e, 0x73,
  0x65, 0x5f, 0x35, 0x00, 0x01, 0x00, 0x00, 0x00, 0x04, 0x00, 0x00, 0x00,
  0x8a, 0xf9, 0xff, 0xff, 0x04, 0x00, 0x00, 0x00, 0x0d, 0x00, 0x00, 0x00,
  0x64, 0x65, 0x6e, 0x73, 0x65, 0x5f, 0x33, 0x5f, 0x69, 0x6e, 0x70, 0x75,
  0x74, 0x00, 0x00, 0x00, 0x02, 0x00, 0x00, 0x00, 0x34, 0x00, 0x00, 0x00,
  0x04, 0x00, 0x00, 0x00, 0xdc, 0xff, 0xff, 0xff, 0x0c, 0x00, 0x00, 0x00,
  0x04, 0x00, 0x00, 0x00, 0x13, 0x00, 0x00, 0x00, 0x43, 0x4f, 0x4e, 0x56,
  0x45, 0x52, 0x53, 0x49, 0x4f, 0x4e, 0x5f, 0x4d, 0x45, 0x54, 0x41, 0x44,
  0x41, 0x54, 0x41, 0x00, 0x08, 0x00, 0x0c, 0x00, 0x08, 0x00, 0x04, 0x00,
  0x08, 0x00, 0x00, 0x00, 0x0b, 0x00, 0x00, 0x00, 0x04, 0x00, 0x00, 0x00,
  0x13, 0x00, 0x00, 0x00, 0x6d, 0x69, 0x6e, 0x5f, 0x72, 0x75, 0x6e, 0x74,
  0x69, 0x6d, 0x65, 0x5f, 0x76, 0x65, 0x72, 0x73, 0x69, 0x6f, 0x6e, 0x00,
  0x0d, 0x00, 0x00, 0x00, 0x14, 0x06, 0x00, 0x00, 0x0c, 0x06, 0x00, 0x00,
  0xf8, 0x05, 0x00, 0x00, 0xa0, 0x05, 0x00, 0x00, 0x50, 0x05, 0x00, 0x00,
  0x00, 0x05, 0x00, 0x00, 0xf0, 0x00, 0x00, 0x00, 0xa0, 0x00, 0x00, 0x00,
  0x98, 0x00, 0x00, 0x00, 0x90, 0x00, 0x00, 0x00, 0x88, 0x00, 0x00, 0x00,
  0x68, 0x00, 0x00, 0x00, 0x04, 0x00, 0x00, 0x00, 0x3a, 0xfa, 0xff, 0xff,
  0x04, 0x00, 0x00, 0x00, 0x54, 0x00, 0x00, 0x00, 0x0c, 0x00, 0x00, 0x00,
  0x08, 0x00, 0x0e, 0x00, 0x08, 0x00, 0x04, 0x00, 0x08, 0x00, 0x00, 0x00,
  0x10, 0x00, 0x00, 0x00, 0x24, 0x00, 0x00, 0x00, 0x00, 0x00, 0x06, 0x00,
  0x08, 0x00, 0x04, 0x00, 0x06, 0x00, 0x00, 0x00, 0x04, 0x00, 0x00, 0x00,
  0x00, 0x00, 0x00, 0x00, 0x00, 0x00, 0x0a, 0x00, 0x10, 0x00, 0x0c, 0x00,
  0x08, 0x00, 0x04, 0x00, 0x0a, 0x00, 0x00, 0x00, 0x02, 0x00, 0x00, 0x00,
  0x02, 0x00, 0x00, 0x00, 0x04, 0x00, 0x00, 0x00, 0x06, 0x00, 0x00, 0x00,
  0x32, 0x2e, 0x31, 0x35, 0x2e, 0x30, 0x00, 0x00, 0x9a, 0xfa, 0xff, 0xff,
  0x04, 0x00, 0x00, 0x00, 0x10, 0x00, 0x00, 0x00, 0x31, 0x2e, 0x35, 0x2e,
  0x30, 0x00, 0x00, 0x00, 0x00, 0x00, 0x00, 0x00, 0x00, 0x00, 0x00, 0x00,
  0xa8, 0xf5, 0xff, 0xff, 0xac, 0xf5, 0xff, 0xff, 0xb0, 0xf5, 0xff, 0xff,
  0xc2, 0xfa, 0xff, 0xff, 0x04, 0x00, 0x00, 0x00, 0x40, 0x00, 0x00, 0x00,
  0xe8, 0xb1, 0x1f, 0xbf, 0x0a, 0x24, 0x61, 0xbe, 0x1d, 0xfe, 0xaf, 0x3d,
  0x77, 0x64, 0xcd, 0xbe, 0xe6, 0xc1, 0x44, 0xbf, 0x82, 0x30, 0xc5, 0x3c,
  0xe8, 0xf8, 0x41, 0x3e, 0x56, 0x6b, 0xb5, 0xbe, 0xb5, 0x94, 0xb5, 0xbe,
  0x71, 0x1c, 0x11, 0x3f, 0x20, 0x12, 0x81, 0x3e, 0x52, 0xd2, 0xdf, 0xbe,
  0x0c, 0x7d, 0x74, 0xbf, 0xf8, 0x1e, 0x13, 0x3f, 0x06, 0x4a, 0x8c, 0x3f,
  0x0c, 0x1e, 0xd1, 0xbd, 0x0e, 0xfb, 0xff, 0xff, 0x04, 0x00, 0x00, 0x00,
  0x00, 0x04, 0x00, 0x00, 0x95, 0x22, 0xc5, 0xbd, 0x58, 0xfa, 0x13, 0x3d,
  0xc6, 0xb2, 0x10, 0xbf, 0x92, 0xc8, 0x71, 0xbe, 0x97, 0x5b, 0x60, 0xbe,
  0x08, 0xa0, 0xd8, 0xbe, 0x1b, 0x65, 0xd4, 0xbe, 0xf2, 0x94, 0x29, 0x3f,
  0x22, 0x70, 0x4c, 0x3e, 0xe8, 0xf8, 0x3c, 0x3e, 0xc2, 0xcd, 0x09, 0xbf,
  0x46, 0x86, 0x57, 0xbd, 0x0a, 0x97, 0x1e, 0xbe, 0xfe, 0xaa, 0x56, 0x3e,
  0x71, 0x2c, 0x24, 0x3e, 0xfe, 0x01, 0xe9, 0x3e, 0x4a, 0x59, 0x4b, 0x3e,
  0x63, 0x84, 0xa2, 0xbe, 0xfa, 0x6a, 0xe2, 0x3e, 0x90, 0xe0, 0x31, 0x3d,
  0x2a, 0x64, 0x50, 0xbe, 0xd7, 0xb3, 0x34, 0x3d, 0x9a, 0xb4, 0x59, 0x3e,
  0x5a, 0x37, 0x85, 0xbe, 0xd0, 0x9c, 0x4d, 0x3d, 0x45, 0x72, 0x1d, 0xbd,
  0xca, 0xf4, 0xde, 0x3c, 0x7c, 0x97, 0x97, 0x3e, 0xc6, 0x5b, 0x23, 0xbd,
  0xf2, 0x32, 0x91, 0xbe, 0xac, 0x93, 0xcc, 0x3e, 0x2d, 0xc9, 0x24, 0xbd,
  0x3f, 0xae, 0x85, 0xbb, 0x2a, 0xa0, 0x60, 0x3e, 0x55, 0x62, 0x1e, 0x3e,
  0x97, 0xfc, 0xa5, 0x3e, 0x0c, 0xca, 0x9b, 0x3d, 0x7a, 0xa2, 0xcc, 0x3e,
  0xa2, 0x92, 0x70, 0x3e, 0xf9, 0xa0, 0xbd, 0x3e, 0x14, 0xbe, 0xca, 0xbe,
  0xcc, 0x29, 0xd7, 0xbe, 0xb1, 0xb5, 0xce, 0x3e, 0x46, 0x7a, 0x16, 0x3e,
  0x89, 0x65, 0xbd, 0x3e, 0xb4, 0x1b, 0xd5, 0xbe, 0x55, 0xff, 0xc0, 0x3e,
  0xfa, 0xfa, 0x5f, 0xbe, 0xd9, 0x35, 0xd6, 0xbc, 0x1c, 0xcc, 0xb3, 0x3d,
  0x9f, 0xd3, 0xee, 0x3e, 0xd1, 0xd7, 0x10, 0xbe, 0xe4, 0xb3, 0x67, 0xbe,
  0x48, 0x2b, 0x8b, 0x3e, 0xc4, 0xbd, 0xa8, 0x3d, 0xe1, 0xd4, 0xd7, 0xbe,
  0xe6, 0x2b, 0x05, 0xbe, 0x9d, 0x23, 0xac, 0xbd, 0x23, 0xe5, 0xcf, 0xbe,
  0x40, 0x4e, 0x80, 0x3e, 0x10, 0xf2, 0x91, 0xbe, 0xdc, 0xb5, 0xad, 0xbd,
  0x52, 0x5c, 0xe1, 0x3e, 0x42, 0x3c, 0x0d, 0xbe, 0x55, 0xed, 0x81, 0xbe,
  0x79, 0x8f, 0x70, 0xbe, 0x0e, 0x3d, 0xa2, 0xbe, 0x39, 0x71, 0x9b, 0xbc,
  0x06, 0xd7, 0xb6, 0xbe, 0x1b, 0x7a, 0x1a, 0xbf, 0x36, 0x3f, 0x58, 0x3e,
  0x26, 0x62, 0xbc, 0x3e, 0x06, 0x65, 0x30, 0x3e, 0x79, 0x93, 0xd3, 0x3e,
  0xb7, 0x64, 0x74, 0x3e, 0xec, 0xb4, 0xe3, 0x3d, 0xb9, 0x30, 0xc7, 0xbe,
  0x60, 0xe2, 0xba, 0xbd, 0xf9, 0x03, 0x7b, 0xbe, 0x65, 0x4e, 0x02, 0x3f,
  0xfe, 0x90, 0xdb, 0xbd, 0x60, 0xa7, 0xe8, 0x3c, 0x42, 0x40, 0x94, 0xbe,
  0x81, 0x42, 0x1b, 0xbe, 0x84, 0x6f, 0x80, 0xbd, 0x4a, 0xfd, 0x85, 0x3e,
  0xdd, 0xa8, 0x82, 0x3e, 0xcc, 0xc7, 0x8f, 0xbe, 0x52, 0xe0, 0xbe, 0xbe,
  0xc8, 0xe4, 0xe1, 0xbe, 0x8a, 0xfe, 0xbd, 0x3e, 0x97, 0xa9, 0xa7, 0x3e,
  0xf0, 0x3f, 0x83, 0x38, 0x02, 0x39, 0xc7, 0xbe, 0x3e, 0x6b, 0x88, 0x3e,
  0xe4, 0x65, 0x84, 0xbd, 0x02, 0x1d, 0xc6, 0x3e, 0x70, 0x4c, 0x4a, 0x3d,
  0x46, 0xb9, 0x10, 0xbe, 0xed, 0x9a, 0xf0, 0xbe, 0x43, 0xa5, 0xd5, 0x3e,
  0x9b, 0x7a, 0x22, 0x3e, 0xe0, 0x62, 0x31, 0x3c, 0xe1, 0xe8, 0x9b, 0x3e,
  0x80, 0xc9, 0x76, 0xbe, 0xd7, 0xed, 0x09, 0xbe, 0xaa, 0x8d, 0x89, 0xbe,
  0x00, 0x3c, 0xca, 0xbe, 0x8e, 0x9f, 0x8b, 0x3e, 0x35, 0x0e, 0xcc, 0x3e,
  0x74, 0x04, 0x06, 0x3e, 0x25, 0x6d, 0x92, 0x3e, 0x30, 0xf3, 0x0d, 0x3d,
  0x20, 0x55, 0xc1, 0x3c, 0x62, 0xb0, 0x42, 0x3e, 0x1e, 0x82, 0x4b, 0x3e,
  0x37, 0x9b, 0x83, 0xbe, 0x2a, 0x0a, 0xcd, 0xbe, 0x48, 0x2d, 0xd4, 0xbd,
  0xc8, 0x99, 0x53, 0x3d, 0x31, 0x0d, 0xaa, 0x3e, 0x90, 0xe8, 0xfd, 0xbd,
  0xca, 0x65, 0x3f, 0x3e, 0xed, 0x8e, 0x60, 0xbe, 0x1c, 0xe1, 0xc2, 0x3d,
  0x9c, 0x0c, 0xbe, 0xbd, 0x54, 0xff, 0x25, 0xbe, 0xed, 0x65, 0xa7, 0xbe,
  0x53, 0xa7, 0x4e, 0x3e, 0xc7, 0xd5, 0xd8, 0x3e, 0x7b, 0x2d, 0xc0, 0x3e,
  0x89, 0x49, 0x68, 0x3e, 0xb9, 0x3a, 0xd9, 0x3e, 0xc5, 0x66, 0x8e, 0x3e,
  0x58, 0x2b, 0x35, 0x3d, 0x49, 0x72, 0x7a, 0x3e, 0x09, 0xa2, 0xad, 0x3e,
  0xd1, 0xaf, 0x75, 0xbe, 0x6f, 0x31, 0xa0, 0xbd, 0x9c, 0x14, 0xd3, 0x3e,
  0xaa, 0xed, 0x69, 0x3e, 0x16, 0xf6, 0x5a, 0x3e, 0x12, 0x33, 0x1c, 0xbe,
  0x3c, 0xba, 0xe0, 0xbd, 0x50, 0x3f, 0xba, 0xbe, 0x5b, 0x72, 0xca, 0xbe,
  0x7b, 0x63, 0x69, 0x3c, 0xda, 0x9f, 0x8a, 0xbe, 0xe0, 0xb6, 0xa3, 0xbc,
  0xde, 0x84, 0xc4, 0xbe, 0x8e, 0x6a, 0xcb, 0xbe, 0x28, 0x56, 0x41, 0xbd,
  0xb7, 0xa5, 0x80, 0xbe, 0x66, 0xfc, 0x9e, 0x3e, 0x27, 0x7e, 0xd2, 0xbe,
  0x62, 0xe6, 0x4b, 0x3e, 0xcf, 0x58, 0xab, 0xbe, 0x7f, 0xae, 0xae, 0x3e,
  0x79, 0xe2, 0xc7, 0xbe, 0xc0, 0xbd, 0x8e, 0x3c, 0xee, 0x42, 0x67, 0x3e,
  0x08, 0x90, 0xde, 0xbd, 0xe8, 0x05, 0x22, 0xbe, 0x6c, 0x6e, 0xd3, 0x3d,
  0xde, 0x2a, 0x3a, 0x3e, 0x48, 0xd4, 0x99, 0xbd, 0x34, 0x8e, 0xf9, 0xbd,
  0x3c, 0x31, 0xcc, 0xbd, 0x4e, 0x2f, 0x4a, 0x3e, 0x46, 0xe7, 0xd5, 0xbe,
  0x77, 0xd3, 0x68, 0xbe, 0x3e, 0xa4, 0x52, 0x3e, 0x6f, 0x76, 0xa2, 0x3e,
  0x03, 0xda, 0xb1, 0xbe, 0x18, 0x7d, 0x01, 0xbe, 0xc4, 0x76, 0xdc, 0xbe,
  0xc6, 0xf4, 0xd3, 0xbe, 0xc0, 0xb5, 0xb5, 0xbb, 0xb7, 0xac, 0xc3, 0xbe,
  0x9c, 0x97, 0x8a, 0xbe, 0x00, 0xbe, 0x3e, 0xbb, 0x6d, 0x49, 0xaa, 0x3e,
  0x69, 0x5c, 0xae, 0x3e, 0x68, 0x35, 0x5e, 0x3e, 0xb0, 0x8b, 0x2f, 0x3d,
  0xb2, 0xc2, 0x5f, 0x3c, 0x34, 0xa2, 0xa8, 0x3e, 0xad, 0x88, 0x03, 0xbe,
  0xba, 0xea, 0x14, 0xbe, 0xbc, 0x60, 0xdf, 0xbd, 0xc2, 0xb4, 0xd1, 0xbb,
  0x69, 0x2f, 0xa7, 0xbe, 0xd7, 0xf5, 0xaa, 0xbe, 0x28, 0x75, 0x23, 0xbe,
  0x31, 0x2b, 0x46, 0xbf, 0x00, 0xb5, 0x5c, 0xbb, 0x87, 0x2a, 0xc5, 0x3e,
  0xa4, 0x30, 0x07, 0xbf, 0x52, 0xc7, 0x33, 0xbe, 0x5d, 0xb0, 0xaf, 0x3d,
  0x3a, 0x14, 0x04, 0x3e, 0xb9, 0x99, 0x8f, 0xbd, 0x5e, 0xe1, 0xf8, 0xbd,
  0x53, 0x2f, 0x66, 0x3e, 0xe2, 0x72, 0xab, 0xbe, 0xfc, 0xd4, 0x06, 0xbe,
  0x9b, 0xcd, 0xca, 0x3e, 0x22, 0x1d, 0xc4, 0xbc, 0x4e, 0xae, 0xaf, 0xbe,
  0xf5, 0x5e, 0x95, 0x3e, 0x6b, 0x9e, 0x25, 0x3e, 0xd4, 0xd8, 0x17, 0xbe,
  0x40, 0xd2, 0x8c, 0x3c, 0xf1, 0x52, 0xff, 0xbc, 0x59, 0xf6, 0x6f, 0xbe,
  0x97, 0xcd, 0x20, 0xbe, 0xb1, 0xa7, 0xce, 0x3e, 0x6f, 0xa7, 0xcb, 0x3e,
  0xf1, 0x17, 0x67, 0x3e, 0xbb, 0x1a, 0x8f, 0x3e, 0x69, 0x11, 0xb1, 0xbe,
  0x21, 0x12, 0x95, 0x3e, 0x8c, 0x93, 0x43, 0x3e, 0xbc, 0x14, 0x73, 0xbd,
  0xba, 0x9a, 0x05, 0xbf, 0xcb, 0x92, 0xc3, 0x3e, 0xe3, 0xaa, 0x3d, 0x3e,
  0x7d, 0x48, 0xb3, 0xbe, 0x40, 0x03, 0x0c, 0xbe, 0xf2, 0x97, 0xc6, 0xbe,
  0xcd, 0xc0, 0x57, 0xbe, 0x21, 0xde, 0x9d, 0x3e, 0x0f, 0x24, 0x84, 0x3e,
  0x18, 0xa8, 0xdf, 0x3e, 0x5d, 0x0b, 0x1e, 0xbf, 0x52, 0x0e, 0x77, 0x3e,
  0x3b, 0x28, 0x0b, 0xbf, 0x84, 0xe2, 0x51, 0xbe, 0xba, 0xab, 0xc3, 0x3e,
  0x90, 0x06, 0xf2, 0x3e, 0x26, 0xc3, 0xe8, 0xbd, 0xc6, 0xf3, 0x7c, 0x3e,
  0xe3, 0x6c, 0xda, 0x3e, 0x3a, 0x08, 0xa9, 0xbd, 0xd9, 0xf9, 0x7e, 0xbe,
  0x5b, 0x4b, 0xac, 0x3d, 0xa4, 0xcf, 0x5c, 0xbe, 0x54, 0x60, 0x09, 0x3e,
  0x29, 0x94, 0xca, 0x3e, 0x38, 0x36, 0x41, 0xbe, 0x36, 0x53, 0x32, 0x3c,
  0xda, 0x0f, 0xd1, 0xbe, 0x28, 0x68, 0xd8, 0x3d, 0x1e, 0x65, 0x3b, 0x3e,
  0xda, 0xfe, 0x2f, 0x3e, 0xe8, 0x4e, 0x40, 0x3e, 0x1a, 0xff, 0xff, 0xff,
  0x04, 0x00, 0x00, 0x00, 0x40, 0x00, 0x00, 0x00, 0x41, 0x35, 0x79, 0x3e,
  0xc8, 0x21, 0xfa, 0xbe, 0x53, 0xb8, 0xc5, 0x3e, 0x1f, 0x0c, 0x46, 0x3d,
  0xb0, 0xe0, 0x03, 0xbf, 0xab, 0x21, 0x0e, 0x3f, 0x90, 0x36, 0x81, 0xbd,
  0xaa, 0xf6, 0x3c, 0x3c, 0xa0, 0x2d, 0xae, 0xbd, 0xbc, 0xe3, 0x13, 0x3e,
  0xb4, 0xca, 0xd9, 0x3e, 0xd7, 0x17, 0x8a, 0x3e, 0xef, 0x17, 0xf1, 0x3e,
  0x05, 0x82, 0x0c, 0xbf, 0x71, 0xf6, 0x3a, 0x3e, 0xbe, 0x0a, 0xdf, 0x3d,
  0x66, 0xff, 0xff, 0xff, 0x04, 0x00, 0x00, 0x00, 0x40, 0x00, 0x00, 0x00,
  0x99, 0xc1, 0xa1, 0xbe, 0x00, 0x00, 0x00, 0x00, 0x52, 0xb5, 0x07, 0x3d,
  0xbc, 0x70, 0xb1, 0xbd, 0x00, 0x00, 0x00, 0x00, 0xe9, 0xd1, 0x1d, 0xbe,
  0x00, 0x00, 0x00, 0x00, 0xeb, 0x31, 0xbf, 0x3e, 0x00, 0x00, 0x00, 0x00,
  0x6c, 0x4d, 0x93, 0x3e, 0x7c, 0x2b, 0x30, 0xbf, 0x42, 0xe5, 0xd5, 0x3e,
  0x92, 0x24, 0xd8, 0xbe, 0x00, 0x00, 0x00, 0x00, 0x15, 0xfa, 0xc4, 0x3e,
  0x8c, 0xd5, 0xea, 0x3e, 0xb2, 0xff, 0xff, 0xff, 0x04, 0x00, 0x00, 0x00,
  0x40, 0x00, 0x00, 0x00, 0xa0, 0xab, 0x91, 0x3e, 0xcb, 0x88, 0x3b, 0xbe,
  0xd5, 0x51, 0x4e, 0x3d, 0x3a, 0x12, 0x16, 0xbe, 0x33, 0x1c, 0x7d, 0x3e,
  0x20, 0xe4, 0x6c, 0xbe, 0x83, 0xd1, 0x6a, 0x3d, 0x00, 0x00, 0x00, 0x00,
  0xc3, 0xa2, 0x14, 0xbe, 0xf0, 0x70, 0xcb, 0xbc, 0x00, 0x00, 0x00, 0x00,
  0x34, 0x88, 0x08, 0xbc, 0x3f, 0x1a, 0x65, 0x3e, 0xbc, 0x75, 0x68, 0x3d,
  0x8a, 0xbd, 0xdd, 0x3e, 0x75, 0x55, 0x2d, 0xbe, 0x00, 0x00, 0x06, 0x00,
  0x08, 0x00, 0x04, 0x00, 0x06, 0x00, 0x00, 0x00, 0x04, 0x00, 0x00, 0x00,
  0x04, 0x00, 0x00, 0x00, 0x77, 0x80, 0x64, 0x3d, 0x08, 0xfb, 0xff, 0xff,
  0x0c, 0xfb, 0xff, 0xff, 0x0f, 0x00, 0x00, 0x00, 0x4d, 0x4c, 0x49, 0x52,
  0x20, 0x43, 0x6f, 0x6e, 0x76, 0x65, 0x72, 0x74, 0x65, 0x64, 0x2e, 0x00,
  0x01, 0x00, 0x00, 0x00, 0x14, 0x00, 0x00, 0x00, 0x00, 0x00, 0x0e, 0x00,
  0x18, 0x00, 0x14, 0x00, 0x10, 0x00, 0x0c, 0x00, 0x08, 0x00, 0x04, 0x00,
  0x0e, 0x00, 0x00, 0x00, 0x14, 0x00, 0x00, 0x00, 0x1c, 0x00, 0x00, 0x00,
  0xd8, 0x00, 0x00, 0x00, 0xdc, 0x00, 0x00, 0x00, 0xe0, 0x00, 0x00, 0x00,
  0x04, 0x00, 0x00, 0x00, 0x6d, 0x61, 0x69, 0x6e, 0x00, 0x00, 0x00, 0x00,
  0x03, 0x00, 0x00, 0x00, 0x80, 0x00, 0x00, 0x00, 0x38, 0x00, 0x00, 0x00,
  0x04, 0x00, 0x00, 0x00, 0x9a, 0xff, 0xff, 0xff, 0x10, 0x00, 0x00, 0x00,
  0x00, 0x00, 0x00, 0x08, 0x0c, 0x00, 0x00, 0x00, 0x10, 0x00, 0x00, 0x00,
  0x84, 0xfb, 0xff, 0xff, 0x01, 0x00, 0x00, 0x00, 0x09, 0x00, 0x00, 0x00,
  0x03, 0x00, 0x00, 0x00, 0x08, 0x00, 0x00, 0x00, 0x06, 0x00, 0x00, 0x00,
  0x01, 0x00, 0x00, 0x00, 0xca, 0xff, 0xff, 0xff, 0x10, 0x00, 0x00, 0x00,
  0x00, 0x00, 0x00, 0x08, 0x10, 0x00, 0x00, 0x00, 0x14, 0x00, 0x00, 0x00,
  0xba, 0xff, 0xff, 0xff, 0x00, 0x00, 0x00, 0x01, 0x01, 0x00, 0x00, 0x00,
  0x08, 0x00, 0x00, 0x00, 0x03, 0x00, 0x00, 0x00, 0x07, 0x00, 0x00, 0x00,
  0x05, 0x00, 0x00, 0x00, 0x02, 0x00, 0x00, 0x00, 0x00, 0x00, 0x0e, 0x00,
  0x16, 0x00, 0x00, 0x00, 0x10, 0x00, 0x0c, 0x00, 0x0b, 0x00, 0x04, 0x00,
  0x0e, 0x00, 0x00, 0x00, 0x18, 0x00, 0x00, 0x00, 0x00, 0x00, 0x00, 0x08,
  0x18, 0x00, 0x00, 0x00, 0x1c, 0x00, 0x00, 0x00, 0x00, 0x00, 0x06, 0x00,
  0x08, 0x00, 0x07, 0x00, 0x06, 0x00, 0x00, 0x00, 0x00, 0x00, 0x00, 0x01,
  0x01, 0x00, 0x00, 0x00, 0x07, 0x00, 0x00, 0x00, 0x03, 0x00, 0x00, 0x00,
  0x00, 0x00, 0x00, 0x00, 0x04, 0x00, 0x00, 0x00, 0x03, 0x00, 0x00, 0x00,
  0x01, 0x00, 0x00, 0x00, 0x09, 0x00, 0x00, 0x00, 0x01, 0x00, 0x00, 0x00,
  0x00, 0x00, 0x00, 0x00, 0x0a, 0x00, 0x00, 0x00, 0xa4, 0x03, 0x00, 0x00,
  0x34, 0x03, 0x00, 0x00, 0xc4, 0x02, 0x00, 0x00, 0x6c, 0x02, 0x00, 0x00,
  0x20, 0x02, 0x00, 0x00, 0xd4, 0x01, 0x00, 0x00, 0x88, 0x01, 0x00, 0x00,
  0xf4, 0x00, 0x00, 0x00, 0x60, 0x00, 0x00, 0x00, 0x04, 0x00, 0x00, 0x00,
  0x9a, 0xfc, 0xff, 0xff, 0x00, 0x00, 0x00, 0x01, 0x14, 0x00, 0x00, 0x00,
  0x1c, 0x00, 0x00, 0x00, 0x1c, 0x00, 0x00, 0x00, 0x0a, 0x00, 0x00, 0x00,
  0x34, 0x00, 0x00, 0x00, 0x02, 0x00, 0x00, 0x00, 0xff, 0xff, 0xff, 0xff,
  0x01, 0x00, 0x00, 0x00, 0x84, 0xfc, 0xff, 0xff, 0x19, 0x00, 0x00, 0x00,
  0x53, 0x74, 0x61, 0x74, 0x65, 0x66, 0x75, 0x6c, 0x50, 0x61, 0x72, 0x74,
  0x69, 0x74, 0x69, 0x6f, 0x6e, 0x65, 0x64, 0x43, 0x61, 0x6c, 0x6c, 0x3a,
  0x30, 0x00, 0x00, 0x00, 0x02, 0x00, 0x00, 0x00, 0x01, 0x00, 0x00, 0x00,
  0x01, 0x00, 0x00, 0x00, 0xf2, 0xfc, 0xff, 0xff, 0x00, 0x00, 0x00, 0x01,
  0x14, 0x00, 0x00, 0x00, 0x1c, 0x00, 0x00, 0x00, 0x1c, 0x00, 0x00, 0x00,
  0x09, 0x00, 0x00, 0x00, 0x6c, 0x00, 0x00, 0x00, 0x02, 0x00, 0x00, 0x00,
  0xff, 0xff, 0xff, 0xff, 0x10, 0x00, 0x00, 0x00, 0xdc, 0xfc, 0xff, 0xff,
  0x52, 0x00, 0x00, 0x00, 0x73, 0x65, 0x71, 0x75, 0x65, 0x6e, 0x74, 0x69,
  0x61, 0x6c, 0x5f, 0x31, 0x2f, 0x64, 0x65, 0x6e, 0x73, 0x65, 0x5f, 0x34,
  0x2f, 0x4d, 0x61, 0x74, 0x4d, 0x75, 0x6c, 0x3b, 0x73, 0x65, 0x71, 0x75,
  0x65, 0x6e, 0x74, 0x69, 0x61, 0x6c, 0x5f, 0x31, 0x2f, 0x64, 0x65, 0x6e,
  0x73, 0x65, 0x5f, 0x34, 0x2f, 0x52, 0x65, 0x6c, 0x75, 0x3b, 0x73, 0x65,
  0x71, 0x75, 0x65, 0x6e, 0x74, 0x69, 0x61, 0x6c, 0x5f, 0x31, 0x2f, 0x64,
  0x65, 0x6e, 0x73, 0x65, 0x5f, 0x34, 0x2f, 0x42, 0x69, 0x61, 0x73, 0x41,
  0x64, 0x64, 0x00, 0x00, 0x02, 0x00, 0x00, 0x00, 0x01, 0x00, 0x00, 0x00,
  0x10, 0x00, 0x00, 0x00, 0x82, 0xfd, 0xff, 0xff, 0x00, 0x00, 0x00, 0x01,
  0x14, 0x00, 0x00, 0x00, 0x1c, 0x00, 0x00, 0x00, 0x1c, 0x00, 0x00, 0x00,
  0x08, 0x00, 0x00, 0x00, 0x6c, 0x00, 0x00, 0x00, 0x02, 0x00, 0x00, 0x00,
  0xff, 0xff, 0xff, 0xff, 0x10, 0x00, 0x00, 0x00, 0x6c, 0xfd, 0xff, 0xff,
  0x52, 0x00, 0x00, 0x00, 0x73, 0x65, 0x71, 0x75, 0x65, 0x6e, 0x74, 0x69,
  0x61, 0x6c, 0x5f, 0x31, 0x2f, 0x64, 0x65, 0x6e, 0x73, 0x65, 0x5f, 0x33,
  0x2f, 0x4d, 0x61, 0x74, 0x4d, 0x75, 0x6c, 0x3b, 0x73, 0x65, 0x71, 0x75,
  0x65, 0x6e, 0x74, 0x69, 0x61, 0x6c, 0x5f, 0x31, 0x2f, 0x64, 0x65, 0x6e,
  0x73, 0x65, 0x5f, 0x33, 0x2f, 0x52, 0x65, 0x6c, 0x75, 0x3b, 0x73, 0x65,
  0x71, 0x75, 0x65, 0x6e, 0x74, 0x69, 0x61, 0x6c, 0x5f, 0x31, 0x2f, 0x64,
  0x65, 0x6e, 0x73, 0x65, 0x5f, 0x33, 0x2f, 0x42, 0x69, 0x61, 0x73, 0x41,
  0x64, 0x64, 0x00, 0x00, 0x02, 0x00, 0x00, 0x00, 0x01, 0x00, 0x00, 0x00,
  0x10, 0x00, 0x00, 0x00, 0x7e, 0xfe, 0xff, 0xff, 0x00, 0x00, 0x00, 0x01,
  0x10, 0x00, 0x00, 0x00, 0x10, 0x00, 0x00, 0x00, 0x07, 0x00, 0x00, 0x00,
  0x28, 0x00, 0x00, 0x00, 0xec, 0xfd, 0xff, 0xff, 0x1b, 0x00, 0x00, 0x00,
  0x73, 0x65, 0x71, 0x75, 0x65, 0x6e, 0x74, 0x69, 0x61, 0x6c, 0x5f, 0x31,
  0x2f, 0x64, 0x65, 0x6e, 0x73, 0x65, 0x5f, 0x35, 0x2f, 0x4d, 0x61, 0x74,
  0x4d, 0x75, 0x6c, 0x00, 0x02, 0x00, 0x00, 0x00, 0x01, 0x00, 0x00, 0x00,
  0x10, 0x00, 0x00, 0x00, 0xc6, 0xfe, 0xff, 0xff, 0x00, 0x00, 0x00, 0x01,
  0x10, 0x00, 0x00, 0x00, 0x10, 0x00, 0x00, 0x00, 0x06, 0x00, 0x00, 0x00,
  0x28, 0x00, 0x00, 0x00, 0x34, 0xfe, 0xff, 0xff, 0x1b, 0x00, 0x00, 0x00,
  0x73, 0x65, 0x71, 0x75, 0x65, 0x6e, 0x74, 0x69, 0x61, 0x6c, 0x5f, 0x31,
  0x2f, 0x64, 0x65, 0x6e, 0x73, 0x65, 0x5f, 0x34, 0x2f, 0x4d, 0x61, 0x74,
  0x4d, 0x75, 0x6c, 0x00, 0x02, 0x00, 0x00, 0x00, 0x10, 0x00, 0x00, 0x00,
  0x10, 0x00, 0x00, 0x00, 0x0e, 0xff, 0xff, 0xff, 0x00, 0x00, 0x00, 0x01,
  0x10, 0x00, 0x00, 0x00, 0x10, 0x00, 0x00, 0x00, 0x05, 0x00, 0x00, 0x00,
  0x28, 0x00, 0x00, 0x00, 0x7c, 0xfe, 0xff, 0xff, 0x1b, 0x00, 0x00, 0x00,
  0x73, 0x65, 0x71, 0x75, 0x65, 0x6e, 0x74, 0x69, 0x61, 0x6c, 0x5f, 0x31,
  0x2f, 0x64, 0x65, 0x6e, 0x73, 0x65, 0x5f, 0x33, 0x2f, 0x4d, 0x61, 0x74,
  0x4d, 0x75, 0x6c, 0x00, 0x02, 0x00, 0x00, 0x00, 0x10, 0x00, 0x00, 0x00,
  0x01, 0x00, 0x00, 0x00, 0x56, 0xff, 0xff, 0xff, 0x00, 0x00, 0x00, 0x01,
  0x10, 0x00, 0x00, 0x00, 0x10, 0x00, 0x00, 0x00, 0x04, 0x00, 0x00, 0x00,
  0x38, 0x00, 0x00, 0x00, 0xc4, 0xfe, 0xff, 0xff, 0x2b, 0x00, 0x00, 0x00,
  0x73, 0x65, 0x71, 0x75, 0x65, 0x6e, 0x74, 0x69, 0x61, 0x6c, 0x5f, 0x31,
  0x2f, 0x64, 0x65, 0x6e, 0x73, 0x65, 0x5f, 0x33, 0x2f, 0x42, 0x69, 0x61,
  0x73, 0x41, 0x64, 0x64, 0x2f, 0x52, 0x65, 0x61, 0x64, 0x56, 0x61, 0x72,
  0x69, 0x61, 0x62, 0x6c, 0x65, 0x4f, 0x70, 0x00, 0x01, 0x00, 0x00, 0x00,
  0x10, 0x00, 0x00, 0x00, 0xaa, 0xff, 0xff, 0xff, 0x00, 0x00, 0x00, 0x01,
  0x10, 0x00, 0x00, 0x00, 0x10, 0x00, 0x00, 0x00, 0x03, 0x00, 0x00, 0x00,
  0x38, 0x00, 0x00, 0x00, 0x18, 0xff, 0xff, 0xff, 0x2b, 0x00, 0x00, 0x00,
  0x73, 0x65, 0x71, 0x75, 0x65, 0x6e, 0x74, 0x69, 0x61, 0x6c, 0x5f, 0x31,
  0x2f, 0x64, 0x65, 0x6e, 0x73, 0x65, 0x5f, 0x34, 0x2f, 0x42, 0x69, 0x61,
  0x73, 0x41, 0x64, 0x64, 0x2f, 0x52, 0x65, 0x61, 0x64, 0x56, 0x61, 0x72,
  0x69, 0x61, 0x62, 0x6c, 0x65, 0x4f, 0x70, 0x00, 0x01, 0x00, 0x00, 0x00,
  0x10, 0x00, 0x00, 0x00, 0x00, 0x00, 0x16, 0x00, 0x18, 0x00, 0x14, 0x00,
  0x00, 0x00, 0x10, 0x00, 0x0c, 0x00, 0x08, 0x00, 0x00, 0x00, 0x00, 0x00,
  0x00, 0x00, 0x07, 0x00, 0x16, 0x00, 0x00, 0x00, 0x00, 0x00, 0x00, 0x01,
  0x10, 0x00, 0x00, 0x00, 0x10, 0x00, 0x00, 0x00, 0x02, 0x00, 0x00, 0x00,
  0x38, 0x00, 0x00, 0x00, 0x84, 0xff, 0xff, 0xff, 0x2b, 0x00, 0x00, 0x00,
  0x73, 0x65, 0x71, 0x75, 0x65, 0x6e, 0x74, 0x69, 0x61, 0x6c, 0x5f, 0x31,
  0x2f, 0x64, 0x65, 0x6e, 0x73, 0x65, 0x5f, 0x35, 0x2f, 0x42, 0x69, 0x61,
  0x73, 0x41, 0x64, 0x64, 0x2f, 0x52, 0x65, 0x61, 0x64, 0x56, 0x61, 0x72,
  0x69, 0x61, 0x62, 0x6c, 0x65, 0x4f, 0x70, 0x00, 0x01, 0x00, 0x00, 0x00,
  0x01, 0x00, 0x00, 0x00, 0x00, 0x00, 0x16, 0x00, 0x1c, 0x00, 0x18, 0x00,
  0x00, 0x00, 0x14, 0x00, 0x10, 0x00, 0x0c, 0x00, 0x00, 0x00, 0x00, 0x00,
  0x08, 0x00, 0x07, 0x00, 0x16, 0x00, 0x00, 0x00, 0x00, 0x00, 0x00, 0x01,
  0x14, 0x00, 0x00, 0x00, 0x20, 0x00, 0x00, 0x00, 0x20, 0x00, 0x00, 0x00,
  0x01, 0x00, 0x00, 0x00, 0x3c, 0x00, 0x00, 0x00, 0x02, 0x00, 0x00, 0x00,
  0xff, 0xff, 0xff, 0xff, 0x01, 0x00, 0x00, 0x00, 0x04, 0x00, 0x04, 0x00,
  0x04, 0x00, 0x00, 0x00, 0x1f, 0x00, 0x00, 0x00, 0x73, 0x65, 0x72, 0x76,
  0x69, 0x6e, 0x67, 0x5f, 0x64, 0x65, 0x66, 0x61, 0x75, 0x6c, 0x74, 0x5f,
  0x64, 0x65, 0x6e, 0x73, 0x65, 0x5f, 0x33, 0x5f, 0x69, 0x6e, 0x70, 0x75,
  0x74, 0x3a, 0x30, 0x00, 0x02, 0x00, 0x00, 0x00, 0x01, 0x00, 0x00, 0x00,
  0x01, 0x00, 0x00, 0x00, 0x01, 0x00, 0x00, 0x00, 0x10, 0x00, 0x00, 0x00,
  0x0c, 0x00, 0x0c, 0x00, 0x0b, 0x00, 0x00, 0x00, 0x00, 0x00, 0x04, 0x00,
  0x0c, 0x00, 0x00, 0x00, 0x09, 0x00, 0x00, 0x00, 0x00, 0x00, 0x00, 0x09
 
};

#endif //SINE_MODEL_H